{
  "type": "bpe",
  "vocab": {
    "<pad>": 0,
    "<unk>": 1,
    "<bos>": 2,
    "<eos>": 3,
    "\t": 4,
    "\n": 5,
    " ": 6,
    "!": 7,
    "\"": 8,
    "#": 9,
    "$": 10,
    "%": 11,
    "&": 12,
    "'": 13,
    "(": 14,
    ")": 15,
    "*": 16,
    "+": 17,
    ",": 18,
    "-": 19,
    ".": 20,
    "/": 21,
    "0": 22,
    "1": 23,
    "2": 24,
    "3": 25,
    "4": 26,
    "5": 27,
    "6": 28,
    "7": 29,
    "8": 30,
    "9": 31,
    ":": 32,
    ";": 33,
    "<": 34,
    "=": 35,
    ">": 36,
    "?": 37,
    "@": 38,
    "A": 39,
    "B": 40,
    "C": 41,
    "D": 42,
    "E": 43,
    "F": 44,
    "G": 45,
    "H": 46,
    "I": 47,
    "J": 48,
    "K": 49,
    "L": 50,
    "M": 51,
    "N": 52,
    "O": 53,
    "P": 54,
    "Q": 55,
    "R": 56,
    "S": 57,
    "T": 58,
    "U": 59,
    "V": 60,
    "W": 61,
    "X": 62,
    "Y": 63,
    "Z": 64,
    "[": 65,
    "\\": 66,
    "]": 67,
    "^": 68,
    "_": 69,
    "`": 70,
    "a": 71,
    "b": 72,
    "c": 73,
    "d": 74,
    "e": 75,
    "f": 76,
    "g": 77,
    "h": 78,
    "i": 79,
    "j": 80,
    "k": 81,
    "l": 82,
    "m": 83,
    "n": 84,
    "o": 85,
    "p": 86,
    "q": 87,
    "r": 88,
    "s": 89,
    "t": 90,
    "u": 91,
    "v": 92,
    "w": 93,
    "x": 94,
    "y": 95,
    "z": 96,
    "{": 97,
    "|": 98,
    "}": 99,
    "~": 100,
    "·": 101,
    "É": 102,
    "Ü": 103,
    "ß": 104,
    "á": 105,
    "ä": 106,
    "æ": 107,
    "ç": 108,
    "è": 109,
    "é": 110,
    "ê": 111,
    "ë": 112,
    "í": 113,
    "ï": 114,
    "ñ": 115,
    "ó": 116,
    "ö": 117,
    "ø": 118,
    "ù": 119,
    "ü": 120,
    "ā": 121,
    "ē": 122,
    "ė": 123,
    "ĩ": 124,
    "ī": 125,
    "Ł": 126,
    "Ō": 127,
    "ō": 128,
    "œ": 129,
    "ś": 130,
    "ʿ": 131,
    "Α": 132,
    "Ι": 133,
    "Π": 134,
    "Σ": 135,
    "ά": 136,
    "έ": 137,
    "ή": 138,
    "ί": 139,
    "α": 140,
    "γ": 141,
    "δ": 142,
    "ε": 143,
    "η": 144,
    "θ": 145,
    "ι": 146,
    "κ": 147,
    "λ": 148,
    "μ": 149,
    "ν": 150,
    "ο": 151,
    "π": 152,
    "ρ": 153,
    "ς": 154,
    "σ": 155,
    "τ": 156,
    "υ": 157,
    "φ": 158,
    "χ": 159,
    "ω": 160,
    "ό": 161,
    "ṃ": 162,
    "ṅ": 163,
    "ṇ": 164,
    "ṣ": 165,
    "ἀ": 166,
    "ἄ": 167,
    "Ἀ": 168,
    "ἐ": 169,
    "ἔ": 170,
    "ἕ": 171,
    "ἠ": 172,
    "ἡ": 173,
    "ἦ": 174,
    "ἰ": 175,
    "ὄ": 176,
    "ὅ": 177,
    "ὑ": 178,
    "ὶ": 179,
    "ὸ": 180,
    "ῆ": 181,
    "ῦ": 182,
    " ": 183,
    "–": 184,
    "—": 185,
    "‘": 186,
    "’": 187,
    "“": 188,
    "”": 189,
    "∃": 190,
    "、": 191,
    "し": 192,
    "そ": 193,
    "て": 194,
    "に": 195,
    "る": 196,
    "死": 197,
    "病": 198,
    "至": 199,
    "the": 200,
    "an": 201,
    "is": 202,
    "are": 203,
    "was": 204,
    "were": 205,
    "be": 206,
    "been": 207,
    "being": 208,
    "am": 209,
    "you": 210,
    "he": 211,
    "she": 212,
    "it": 213,
    "we": 214,
    "they": 215,
    "this": 216,
    "that": 217,
    "these": 218,
    "those": 219,
    "my": 220,
    "your": 221,
    "his": 222,
    "her": 223,
    "its": 224,
    "our": 225,
    "their": 226,
    "me": 227,
    "him": 228,
    "us": 229,
    "them": 230,
    "and": 231,
    "or": 232,
    "but": 233,
    "if": 234,
    "so": 235,
    "because": 236,
    "when": 237,
    "while": 238,
    "as": 239,
    "of": 240,
    "in": 241,
    "on": 242,
    "at": 243,
    "to": 244,
    "from": 245,
    "for": 246,
    "with": 247,
    "without": 248,
    "into": 249,
    "onto": 250,
    "over": 251,
    "under": 252,
    "about": 253,
    "above": 254,
    "below": 255,
    "through": 256,
    "during": 257,
    "before": 258,
    "after": 259,
    "between": 260,
    "around": 261,
    "not": 262,
    "no": 263,
    "yes": 264,
    "do": 265,
    "does": 266,
    "did": 267,
    "done": 268,
    "can": 269,
    "could": 270,
    "will": 271,
    "would": 272,
    "should": 273,
    "shall": 274,
    "may": 275,
    "might": 276,
    "must": 277,
    "have": 278,
    "has": 279,
    "had": 280,
    "don't": 281,
    "isn't": 282,
    "aren't": 283,
    "what": 284,
    "who": 285,
    "whom": 286,
    "which": 287,
    "why": 288,
    "where": 289,
    "how": 290,
    "here": 291,
    "there": 292,
    "now": 293,
    "then": 294,
    "today": 295,
    "tomorrow": 296,
    "yesterday": 297,
    "hello": 298,
    "hi": 299,
    "hey": 300,
    "bye": 301,
    "goodbye": 302,
    "please": 303,
    "thanks": 304,
    "thank": 305,
    "sorry": 306,
    "okay": 307,
    "ok": 308,
    "good": 309,
    "bad": 310,
    "great": 311,
    "nice": 312,
    "fine": 313,
    "well": 314,
    "maybe": 315,
    "sure": 316,
    "alright": 317,
    "name": 318,
    "old": 319,
    "live": 320,
    "help": 321,
    "know": 322,
    "think": 323,
    "feel": 324,
    "like": 325,
    "love": 326,
    "hate": 327,
    "want": 328,
    "need": 329,
    "go": 330,
    "come": 331,
    "see": 332,
    "look": 333,
    "say": 334,
    "tell": 335,
    "ask": 336,
    "answer": 337,
    "make": 338,
    "take": 339,
    "give": 340,
    "get": 341,
    "put": 342,
    "find": 343,
    "use": 344,
    "work": 345,
    "play": 346,
    "read": 347,
    "write": 348,
    "learn": 349,
    "teach": 350,
    "show": 351,
    "hear": 352,
    "listen": 353,
    "speak": 354,
    "talk": 355,
    "understand": 356,
    "remember": 357,
    "forget": 358,
    "try": 359,
    "start": 360,
    "stop": 361,
    "continue": 362,
    "open": 363,
    "close": 364,
    "begin": 365,
    "end": 366,
    "wake": 367,
    "sleep": 368,
    "eat": 369,
    "drink": 370,
    "walk": 371,
    "run": 372,
    "sit": 373,
    "stand": 374,
    "happy": 375,
    "sad": 376,
    "angry": 377,
    "tired": 378,
    "bored": 379,
    "excited": 380,
    "scared": 381,
    "surprised": 382,
    "worried": 383,
    "calm": 384,
    "proud": 385,
    "afraid": 386,
    "brave": 387,
    "kind": 388,
    "funny": 389,
    "smart": 390,
    "silly": 391,
    "friendly": 392,
    "warm": 393,
    "cold": 394,
    "hot": 395,
    "big": 396,
    "small": 397,
    "tall": 398,
    "short": 399,
    "long": 400,
    "new": 401,
    "young": 402,
    "fast": 403,
    "slow": 404,
    "easy": 405,
    "hard": 406,
    "right": 407,
    "wrong": 408,
    "true": 409,
    "false": 410,
    "real": 411,
    "fake": 412,
    "same": 413,
    "different": 414,
    "better": 415,
    "best": 416,
    "worse": 417,
    "worst": 418,
    "more": 419,
    "most": 420,
    "less": 421,
    "least": 422,
    "many": 423,
    "few": 424,
    "some": 425,
    "any": 426,
    "all": 427,
    "none": 428,
    "every": 429,
    "each": 430,
    "other": 431,
    "another": 432,
    "one": 433,
    "two": 434,
    "three": 435,
    "four": 436,
    "five": 437,
    "six": 438,
    "seven": 439,
    "eight": 440,
    "nine": 441,
    "ten": 442,
    "hundred": 443,
    "thousand": 444,
    "million": 445,
    "zero": 446,
    "first": 447,
    "second": 448,
    "third": 449,
    "last": 450,
    "next": 451,
    "monday": 452,
    "tuesday": 453,
    "wednesday": 454,
    "thursday": 455,
    "friday": 456,
    "saturday": 457,
    "sunday": 458,
    "january": 459,
    "february": 460,
    "march": 461,
    "april": 462,
    "june": 463,
    "july": 464,
    "august": 465,
    "september": 466,
    "october": 467,
    "november": 468,
    "december": 469,
    "morning": 470,
    "afternoon": 471,
    "evening": 472,
    "night": 473,
    "week": 474,
    "month": 475,
    "year": 476,
    "time": 477,
    "day": 478,
    "hour": 479,
    "minute": 480,
    "computer": 481,
    "program": 482,
    "code": 483,
    "data": 484,
    "model": 485,
    "train": 486,
    "network": 487,
    "neural": 488,
    "transformer": 489,
    "attention": 490,
    "token": 491,
    "embedding": 492,
    "vocabulary": 493,
    "vocab": 494,
    "special": 495,
    "checkpoint": 496,
    "parameter": 497,
    "layer": 498,
    "weight": 499,
    "bias": 500,
    "epoch": 501,
    "gradient": 502,
    "loss": 503,
    "function": 504,
    "language": 505,
    "artificial": 506,
    "intelligence": 507,
    "machine": 508,
    "robot": 509,
    "chat": 510,
    "bot": 511,
    "tlm": 512,
    "th": 513,
    "er": 514,
    "en": 515,
    "re": 516,
    "al": 517,
    "es": 518,
    "ed": 519,
    "ic": 520,
    "ou": 521,
    "ing": 522,
    "ar": 523,
    "ion": 524,
    "le": 525,
    "ent": 526,
    "st": 527,
    "lo": 528,
    "se": 529,
    "ph": 530,
    "om": 531,
    "ct": 532,
    "id": 533,
    "ly": 534,
    "ch": 535,
    "ce": 536,
    "wh": 537,
    "li": 538,
    "ist": 539,
    "im": 540,
    "ve": 541,
    "ad": 542,
    "con": 543,
    "ex": 544,
    "==": 545,
    "ro": 546,
    "ver": 547,
    "s,": 548,
    "ter": 549,
    "ir": 550,
    "gh": 551,
    "ld": 552,
    "ation": 553,
    "su": 554,
    "ge": 555,
    "de": 556,
    "ut": 557,
    "sa": 558,
    "ther": 559,
    "wi": 560,
    "ical": 561,
    "un": 562,
    "po": 563,
    "em": 564,
    "ur": 565,
    "ab": 566,
    "ci": 567,
    "tr": 568,
    "per": 569,
    "cr": 570,
    "ity": 571,
    "ll": 572,
    "qu": 573,
    "phy": 574,
    "The": 575,
    "s.": 576,
    "ke": 577,
    "ilo": 578,
    "iloso": 579,
    "pe": 580,
    "ant": 581,
    "od": 582,
    "act": 583,
    "ow": 584,
    "'s": 585,
    "by": 586,
    "ha": 587,
    "ght": 588,
    "ac": 589,
    "philoso": 590,
    "log": 591,
    "ta": 592,
    "ay": 593,
    "out": 594,
    "est": 595,
    "res": 596,
    "com": 597,
    "ism": 598,
    "ie": 599,
    "ice": 600,
    "lat": 601,
    "ence": 602,
    "pro": 603,
    "pt": 604,
    "ne": 605,
    "said": 606,
    "ive": 607,
    "ol": 608,
    "ess": 609,
    "il": 610,
    "mo": 611,
    "man": 612,
    "ial": 613,
    "ul": 614,
    "fr": 615,
    "ies": 616,
    "tle": 617,
    "ich": 618,
    "ould": 619,
    "ates": 620,
    "pl": 621,
    "te": 622,
    "pr": 623,
    "ment": 624,
    "So": 625,
    "Al": 626,
    "fe": 627,
    "wor": 628,
    "ple": 629,
    "iv": 630,
    "thing": 631,
    "ome": 632,
    "ud": 633,
    "ag": 634,
    "led": 635,
    "art": 636,
    "ics": 637,
    "ue": 638,
    "oun": 639,
    "ure": 640,
    "ain": 641,
    "ind": 642,
    "Socr": 643,
    "si": 644,
    ",”": 645,
    "ate": 646,
    "In": 647,
    "cl": 648,
    "mor": 649,
    "ere": 650,
    "der": 651,
    "pos": 652,
    "ition": 653,
    "Alice": 654,
    "sh": 655,
    "ca": 656,
    "Ar": 657,
    "ledge": 658,
    "y,": 659,
    "ide": 660,
    "sel": 661,
    "gu": 662,
    "philosophy": 663,
    "olog": 664,
    "ect": 665,
    "knowledge": 666,
    "Socrates": 667,
    "form": 668,
    "moral": 669,
    "ap": 670,
    "ard": 671,
    "ev": 672,
    "Kant": 673,
    "ust": 674,
    "isto": 675,
    "phys": 676,
    "Aristo": 677,
    "ject": 678,
    "===": 679,
    "tim": 680,
    "exist": 681,
    "ound": 682,
    "thou": 683,
    "eth": 684,
    "ong": 685,
    "self": 686,
    "ri": 687,
    "ous": 688,
    "ential": 689,
    "He": 690,
    "philosoph": 691,
    "fer": 692,
    "very": 693,
    "It": 694,
    "ces": 695,
    "ob": 696,
    "ish": 697,
    "Aristotle": 698,
    "ble": 699,
    "up": 700,
    "ans": 701,
    "!”": 702,
    "beli": 703,
    "way": 704,
    "cept": 705,
    "ast": 706,
    "ep": 707,
    "ions": 708,
    "taphys": 709,
    "cor": 710,
    "ef": 711,
    "ma": 712,
    "ig": 713,
    "lit": 714,
    "co": 715,
    "es,": 716,
    "nat": 717,
    "ire": 718,
    "ine": 719,
    "dis": 720,
    "vers": 721,
    "pre": 722,
    "Plat": 723,
    "bo": 724,
    "ach": 725,
    "such": 726,
    "own": 727,
    "An": 728,
    "ra": 729,
    "ink": 730,
    "ree": 731,
    "ally": 732,
    "ance": 733,
    "ory": 734,
    "pers": 735,
    "iz": 736,
    "ason": 737,
    "exam": 738,
    "part": 739,
    "Wh": 740,
    "’t": 741,
    "ated": 742,
    "str": 743,
    "por": 744,
    "ass": 745,
    "peri": 746,
    "Plato": 747,
    "’s": 748,
    "pres": 749,
    "fo": 750,
    "inter": 751,
    "ian": 752,
    "ers": 753,
    "only": 754,
    "um": 755,
    "ear": 756,
    "low": 757,
    "ill": 758,
    "thought": 759,
    "cent": 760,
    "sy": 761,
    "metaphys": 762,
    "ual": 763,
    "et": 764,
    "also": 765,
    "rit": 766,
    ".”": 767,
    "rou": 768,
    "ied": 769,
    "just": 770,
    "ary": 771,
    "uman": 772,
    "19": 773,
    "“I": 774,
    "cont": 775,
    "reason": 776,
    "el": 777,
    "irst": 778,
    "belief": 779,
    "than": 780,
    "bet": 781,
    "ction": 782,
    "),": 783,
    "dif": 784,
    "Th": 785,
    "int": 786,
    "ational": 787,
    "wo": 788,
    "aim": 789,
    "argu": 790,
    "person": 791,
    "ot": 792,
    "mat": 793,
    "sci": 794,
    "ivers": 795,
    "bl": 796,
    "Sto": 797,
    "term": 798,
    "sub": 799,
    "able": 800,
    "pp": 801,
    "ile": 802,
    "human": 803,
    "br": 804,
    "op": 805,
    "spe": 806,
    "ious": 807,
    "sen": 808,
    "cord": 809,
    "ed.": 810,
    "val": 811,
    "istem": 812,
    "ology": 813,
    "fl": 814,
    "quest": 815,
    "lig": 816,
    "aw": 817,
    "ite": 818,
    "stud": 819,
    "cus": 820,
    "differ": 821,
    "cer": 822,
    "For": 823,
    "ences": 824,
    "cause": 825,
    "concept": 826,
    "ing,": 827,
    "ists": 828,
    "iew": 829,
    "?”": 830,
    "fin": 831,
    "ber": 832,
    "reat": 833,
    "ople": 834,
    "ed,": 835,
    "rough": 836,
    "af": 837,
    "des": 838,
    "es.": 839,
    "ween": 840,
    "object": 841,
    "view": 842,
    "cho": 843,
    "ations": 844,
    "experi": 845,
    "people": 846,
    "gen": 847,
    "soci": 848,
    "ty": 849,
    ").": 850,
    "17": 851,
    "mean": 852,
    "ural": 853,
    "Ch": 854,
    "cess": 855,
    "\".": 856,
    "ever": 857,
    "This": 858,
    "ho": 859,
    "ser": 860,
    "bas": 861,
    "ck": 862,
    "comm": 863,
    "ories": 864,
    "again": 865,
    "existential": 866,
    "ics,": 867,
    "world": 868,
    "cording": 869,
    "beg": 870,
    "ight": 871,
    "incl": 872,
    "possi": 873,
    "tain": 874,
    "fa": 875,
    "life": 876,
    "ext": 877,
    "port": 878,
    "ethics": 879,
    "uch": 880,
    "ack": 881,
    "little": 882,
    "down": 883,
    "ry": 884,
    "ly,": 885,
    "cons": 886,
    "ular": 887,
    "found": 888,
    "ped": 889,
    "philosophical": 890,
    "du": 891,
    "Ph": 892,
    "20": 893,
    "uth": 894,
    "contr": 895,
    "epistem": 896,
    "sp": 897,
    "gr": 898,
    "age": 899,
    "crit": 900,
    "ific": 901,
    "ism,": 902,
    "Ac": 903,
    "atic": 904,
    "centur": 905,
    "ines": 906,
    "ced": 907,
    "rational": 908,
    "er,": 909,
    "cipl": 910,
    "arch": 911,
    "king": 912,
    "ise": 913,
    "example": 914,
    "vo": 915,
    "gn": 916,
    "====": 917,
    "ments": 918,
    "ia": 919,
    "ning": 920,
    "dist": 921,
    "dep": 922,
    "Un": 923,
    "flu": 924,
    "ouse": 925,
    "chan": 926,
    "pect": 927,
    "mind": 928,
    "Kant's": 929,
    "Re": 930,
    "pon": 931,
    "fic": 932,
    "nature": 933,
    "irt": 934,
    "hether": 935,
    "ity.": 936,
    "fact": 937,
    "ful": 938,
    "Stoic": 939,
    "pu": 940,
    "\",": 941,
    "lect": 942,
    "meaning": 943,
    "y.": 944,
    "ents": 945,
    "whether": 946,
    "clo": 947,
    "sequ": 948,
    "prin": 949,
    "experience": 950,
    "gener": 951,
    "cri": 952,
    "even": 953,
    "ting": 954,
    "row": 955,
    "mod": 956,
    "writ": 957,
    "tern": 958,
    "something": 959,
    "rather": 960,
    "ving": 961,
    "main": 962,
    "claim": 963,
    "Me": 964,
    "tic": 965,
    "mar": 966,
    "cond": 967,
    "cient": 968,
    "ities": 969,
    "depend": 970,
    "inv": 971,
    "ens": 972,
    "ider": 973,
    "fore": 974,
    "ga": 975,
    "question": 976,
    "natural": 977,
    "red": 978,
    "ior": 979,
    "velo": 980,
    "iqu": 981,
    "iel": 982,
    "nor": 983,
    "ental": 984,
    "went": 985,
    "ollow": 986,
    "ip": 987,
    "Dan": 988,
    "stem": 989,
    "logic": 990,
    "According": 991,
    "ict": 992,
    "position": 993,
    "present": 994,
    "influ": 995,
    "develo": 996,
    "Daniel": 997,
    "char": 998,
    "ace": 999,
    "us,": 1000,
    "lated": 1001,
    "both": 1002,
    "stat": 1003,
    "ade": 1004,
    "ity,": 1005,
    "never": 1006,
    "virt": 1007,
    "inst": 1008,
    "call": 1009,
    "pract": 1010,
    "ished": 1011,
    "often": 1012,
    "possible": 1013,
    "example,": 1014,
    "og": 1015,
    "sto": 1016,
    "cour": 1017,
    "though": 1018,
    "Plato's": 1019,
    "univers": 1020,
    "Mo": 1021,
    "I’": 1022,
    "head": 1023,
    "fun": 1024,
    "partic": 1025,
    "n’t": 1026,
    "BC": 1027,
    "on,": 1028,
    "expl": 1029,
    "happ": 1030,
    "follow": 1031,
    "system": 1032,
    "emp": 1033,
    "They": 1034,
    "ield": 1035,
    "ivid": 1036,
    "relig": 1037,
    "ves": 1038,
    "cur": 1039,
    "How": 1040,
    "things": 1041,
    "theory": 1042,
    "gg": 1043,
    "rel": 1044,
    "aly": 1045,
    "known": 1046,
    "consequ": 1047,
    "ion,": 1048,
    "coun": 1049,
    "on’t": 1050,
    "stru": 1051,
    "Philoso": 1052,
    "ts": 1053,
    "ier": 1054,
    "reg": 1055,
    "cre": 1056,
    "it,": 1057,
    "sur": 1058,
    "jud": 1059,
    "Athen": 1060,
    "consider": 1061,
    "off": 1062,
    "came": 1063,
    "law": 1064,
    "includ": 1065,
    "ern": 1066,
    "ing.": 1067,
    "ident": 1068,
    "bil": 1069,
    "ult": 1070,
    "trans": 1071,
    "press": 1072,
    "field": 1073,
    "used": 1074,
    "word": 1075,
    "herself": 1076,
    "ved": 1077,
    "tur": 1078,
    "truth": 1079,
    "Be": 1080,
    "ase": 1081,
    "ily": 1082,
    "thod": 1083,
    "There": 1084,
    "much": 1085,
    "century": 1086,
    "publ": 1087,
    "charact": 1088,
    "universal": 1089,
    "particular": 1090,
    "ak": 1091,
    "OR": 1092,
    "IN": 1093,
    "arm": 1094,
    "polit": 1095,
    "metaphysics": 1096,
    "sense": 1097,
    "chool": 1098,
    "respon": 1099,
    "ose": 1100,
    "sim": 1101,
    "ures": 1102,
    "And": 1103,
    "theories": 1104,
    "made": 1105,
    "au": 1106,
    "top": 1107,
    "dial": 1108,
    "method": 1109,
    "ince": 1110,
    "ude": 1111,
    "ism.": 1112,
    "works": 1113,
    "subject": 1114,
    "descri": 1115,
    "ORIN": 1116,
    "na": 1117,
    "ath": 1118,
    "istic": 1119,
    "Cam": 1120,
    "existence": 1121,
    "itself": 1122,
    "Aristotle's": 1123,
    "What": 1124,
    "18": 1125,
    "ned": 1126,
    "Alice,": 1127,
    "blem": 1128,
    "import": 1129,
    "ique": 1130,
    "den": 1131,
    "lar": 1132,
    "hist": 1133,
    "add": 1134,
    "began": 1135,
    "Socratic": 1136,
    "Univers": 1137,
    "att": 1138,
    "ors": 1139,
    "adition": 1140,
    "idea": 1141,
    "ological": 1142,
    "philosopher": 1143,
    "book": 1144,
    "value": 1145,
    "focus": 1146,
    "ancient": 1147,
    "relation": 1148,
    "school": 1149,
    "problem": 1150,
    "pli": 1151,
    "ics.": 1152,
    "Que": 1153,
    "ized": 1154,
    "character": 1155,
    "Queen": 1156,
    "is,": 1157,
    "med": 1158,
    "ative": 1159,
    "chol": 1160,
    "Some": 1161,
    "interest": 1162,
    "defin": 1163,
    "certain": 1164,
    "general": 1165,
    "and,": 1166,
    "par": 1167,
    "set": 1168,
    "ness": 1169,
    "appro": 1170,
    "ever,": 1171,
    "En": 1172,
    "You": 1173,
    "metaphysical": 1174,
    "speci": 1175,
    "based": 1176,
    "tradition": 1177,
    "lt": 1178,
    "a,": 1179,
    "ang": 1180,
    "ateg": 1181,
    "irect": 1182,
    "matter": 1183,
    "hold": 1184,
    "epistemology": 1185,
    "principl": 1186,
    "sc": 1187,
    "On": 1188,
    "Crit": 1189,
    "study": 1190,
    "called": 1191,
    "Fr": 1192,
    "ation.": 1193,
    "dec": 1194,
    "sour": 1195,
    "cogn": 1196,
    "individ": 1197,
    "struct": 1198,
    "modern": 1199,
    "reed": 1200,
    "ly.": 1201,
    "bod": 1202,
    "nothing": 1203,
    "pass": 1204,
    "individual": 1205,
    "Ex": 1206,
    "bit": 1207,
    "ion.": 1208,
    "seem": 1209,
    "proper": 1210,
    "kept": 1211,
    "inte": 1212,
    "ified": 1213,
    "science": 1214,
    "analy": 1215,
    "Ep": 1216,
    "IS": 1217,
    "Con": 1218,
    "tal": 1219,
    "lear": 1220,
    "idge": 1221,
    "knowledge.": 1222,
    "ethical": 1223,
    "philosophers": 1224,
    "back": 1225,
    "voice": 1226,
    "phon": 1227,
    "atter": 1228,
    "ither": 1229,
    "means": 1230,
    "Gree": 1231,
    "quite": 1232,
    "Chr": 1233,
    "since": 1234,
    "os": 1235,
    "kes": 1236,
    "ingu": 1237,
    "hel": 1238,
    "air": 1239,
    "icism": 1240,
    "early": 1241,
    "(19": 1242,
    ".\"": 1243,
    "97": 1244,
    "ort": 1245,
    "ings": 1246,
    "arr": 1247,
    "ars": 1248,
    "ation,": 1249,
    "Tur": 1250,
    "cend": 1251,
    "itions": 1252,
    "caus": 1253,
    "got": 1254,
    "ology,": 1255,
    "appe": 1256,
    "beliefs": 1257,
    "concer": 1258,
    "change": 1259,
    "Metaphys": 1260,
    "ru": 1261,
    "ks": 1262,
    "ater": 1263,
    "Sart": 1264,
    "period": 1265,
    "contrast": 1266,
    "University": 1267,
    "categ": 1268,
    "Sartre": 1269,
    "ps": 1270,
    "non": 1271,
    "light": 1272,
    "Pres": 1273,
    "late": 1274,
    "states": 1275,
    "side": 1276,
    "ired": 1277,
    "statem": 1278,
    "virtue": 1279,
    "Philosophy": 1280,
    "schol": 1281,
    "approach": 1282,
    "Christ": 1283,
    "var": 1284,
    "omen": 1285,
    "ead": 1286,
    "But": 1287,
    "sens": 1288,
    "necess": 1289,
    "prior": 1290,
    "Pr": 1291,
    "Ne": 1292,
    "As": 1293,
    "BN": 1294,
    "it.": 1295,
    "dom": 1296,
    "ild": 1297,
    "uring": 1298,
    "ived": 1299,
    "philosophy,": 1300,
    "upon": 1301,
    "existentialist": 1302,
    "related": 1303,
    "reedom": 1304,
    "Turtle": 1305,
    "ISBN": 1306,
    "av": 1307,
    "ey": 1308,
    "ore": 1309,
    "cut": 1310,
    "later": 1311,
    "itive": 1312,
    "forms": 1313,
    "round": 1314,
    "ways": 1315,
    "looked": 1316,
    "entities": 1317,
    "empir": 1318,
    "judg": 1319,
    "bility": 1320,
    "min": 1321,
    "mon": 1322,
    "als": 1323,
    "sou": 1324,
    "let": 1325,
    "sup": 1326,
    "logical": 1327,
    "one's": 1328,
    "prom": 1329,
    "concepts": 1330,
    "don’t": 1331,
    "gl": 1332,
    "ref": 1333,
    "ited": 1334,
    "ply": 1335,
    "times": 1336,
    "sych": 1337,
    "contin": 1338,
    "himself": 1339,
    "obser": 1340,
    "Mock": 1341,
    "direct": 1342,
    "bridge": 1343,
    "freedom": 1344,
    "St": 1345,
    "wer": 1346,
    "ted": 1347,
    "lim": 1348,
    "exp": 1349,
    "Other": 1350,
    "requ": 1351,
    "col": 1352,
    "fect": 1353,
    "ideas": 1354,
    "ward": 1355,
    "reject": 1356,
    "ried": 1357,
    "believ": 1358,
    "common": 1359,
    "Gry": 1360,
    "consequences": 1361,
    "including": 1362,
    "high": 1363,
    "Hatter": 1364,
    "Christian": 1365,
    "Cambridge": 1366,
    "anim": 1367,
    "sha": 1368,
    "idence": 1369,
    "prov": 1370,
    "posed": 1371,
    "Alice.": 1372,
    "ance,": 1373,
    "asser": 1374,
    "argument": 1375,
    "mouse": 1376,
    "ternal": 1377,
    "Critique": 1378,
    "intel": 1379,
    "t,": 1380,
    "e.": 1381,
    "ral": 1382,
    "hand": 1383,
    "sum": 1384,
    "aut": 1385,
    "abl": 1386,
    "action": 1387,
    "still": 1388,
    "questions": 1389,
    "social": 1390,
    "invest": 1391,
    "develop": 1392,
    "cy": 1393,
    "lead": 1394,
    "usu": 1395,
    "ically": 1396,
    "dam": 1397,
    "God": 1398,
    "iet": 1399,
    "empt": 1400,
    "orig": 1401,
    "regard": 1402,
    "distingu": 1403,
    "origin": 1404,
    "wa": 1405,
    "bi": 1406,
    "lan": 1407,
    "mis": 1408,
    "ged": 1409,
    "sing": 1410,
    "She": 1411,
    "adem": 1412,
    "knowledge,": 1413,
    "determ": 1414,
    "basic": 1415,
    "gaard": 1416,
    "ship": 1417,
    "practical": 1418,
    "considered": 1419,
    "“You": 1420,
    "principles": 1421,
    "psych": 1422,
    "..": 1423,
    "ctr": 1424,
    "ently": 1425,
    "pur": 1426,
    "comple": 1427,
    "philosophy.": 1428,
    "among": 1429,
    "grow": 1430,
    "include": 1431,
    "important": 1432,
    "However,": 1433,
    "non-": 1434,
    "investig": 1435,
    "e,": 1436,
    "“O": 1437,
    "—”": 1438,
    "room": 1439,
    "role": 1440,
    "iver": 1441,
    "unt": 1442,
    "inqu": 1443,
    "near": 1444,
    "mot": 1445,
    "interpre": 1446,
    "Kier": 1447,
    "political": 1448,
    "large": 1449,
    "body": 1450,
    "Greek": 1451,
    "kegaard": 1452,
    "Kierkegaard": 1453,
    "“W": 1454,
    "ith": 1455,
    "ined": 1456,
    "ify": 1457,
    "feat": 1458,
    "ended": 1459,
    "state": 1460,
    "mere": 1461,
    "That": 1462,
    "discus": 1463,
    "ethics,": 1464,
    "examines": 1465,
    "independ": 1466,
    "course": 1467,
    "explain": 1468,
    "ggest": 1469,
    "specific": 1470,
    "cendental": 1471,
    "fundam": 1472,
    "sm": 1473,
    "oh": 1474,
    "en,": 1475,
    "too": 1476,
    "once": 1477,
    "ess,": 1478,
    "said,": 1479,
    "giv": 1480,
    "ideal": 1481,
    "ogu": 1482,
    "point": 1483,
    "scient": 1484,
    "accoun": 1485,
    "continu": 1486,
    "evidence": 1487,
    "-0": 1488,
    "fal": 1489,
    "theor": 1490,
    "phas": 1491,
    "phen": 1492,
    "pose": 1493,
    "hav": 1494,
    "polog": 1495,
    "ies,": 1496,
    "plic": 1497,
    "rote": 1498,
    "div": 1499,
    "ibut": 1500,
    "self-": 1501,
    "ians": 1502,
    "mathem": 1503,
    "says": 1504,
    "looking": 1505,
    "against": 1506,
    "discipl": 1507,
    "mark": 1508,
    "religious": 1509,
    "various": 1510,
    "discuss": 1511,
    "suggest": 1512,
    "wr": 1513,
    "His": 1514,
    "mom": 1515,
    "Rab": 1516,
    "fall": 1517,
    "one,": 1518,
    "One": 1519,
    "order": 1520,
    "free": 1521,
    "reality": 1522,
    "process": 1523,
    "justific": 1524,
    "plied": 1525,
    "either": 1526,
    "978": 1527,
    "always": 1528,
    "inquir": 1529,
    "dialogu": 1530,
    "wrote": 1531,
    "eno": 1532,
    "anch": 1533,
    "sever": 1534,
    "intu": 1535,
    "objects": 1536,
    "associ": 1537,
    "public": 1538,
    "responsi": 1539,
    "skept": 1540,
    "categories": 1541,
    "langu": 1542,
    "emphas": 1543,
    "moment": 1544,
    "oc": 1545,
    "la": 1546,
    "sk": 1547,
    "No": 1548,
    "org": 1549,
    "Ano": 1550,
    "saw": 1551,
    "orical": 1552,
    "ress": 1553,
    "conne": 1554,
    "themsel": 1555,
    "ances": 1556,
    "according": 1557,
    "sign": 1558,
    "understanding": 1559,
    "remain": 1560,
    "believed": 1561,
    "phenomen": 1562,
    "Another": 1563,
    "At": 1564,
    "vi": 1565,
    "Do": 1566,
    "ner": 1567,
    "pat": 1568,
    "sis": 1569,
    "reli": 1570,
    "reme": 1571,
    "urther": 1572,
    "iness": 1573,
    "mental": 1574,
    "pleas": 1575,
    "ciple": 1576,
    "concl": 1577,
    "“It": 1578,
    "leep": 1579,
    "whole": 1580,
    "empor": 1581,
    "time,": 1582,
    "anything": 1583,
    "“I’": 1584,
    "sciences": 1585,
    "Duch": 1586,
    "enced": 1587,
    "claims": 1588,
    "represent": 1589,
    "stood": 1590,
    "BCE": 1591,
    "empirical": 1592,
    "observ": 1593,
    "usually": 1594,
    "until": 1595,
    "ft": 1596,
    "bu": 1597,
    "ional": 1598,
    "ides": 1599,
    "const": 1600,
    "ough": 1601,
    "ute": 1602,
    "acqu": 1603,
    "Socrates's": 1604,
    "mber": 1605,
    "proposition": 1606,
    "I’m": 1607,
    "Metaphysics": 1608,
    "explo": 1609,
    "Gryphon": 1610,
    "doctr": 1611,
    "fundamental": 1612,
    "Tr": 1613,
    "’re": 1614,
    "Dor": 1615,
    "rese": 1616,
    "seen": 1617,
    "def": 1618,
    "ared": 1619,
    "move": 1620,
    "uel": 1621,
    "going": 1622,
    "ize": 1623,
    "view,": 1624,
    "rodu": 1625,
    "thetic": 1626,
    "instead": 1627,
    "priori": 1628,
    "child": 1629,
    "branch": 1630,
    "Dormouse": 1631,
    "dr": 1632,
    "ms": 1633,
    "a.": 1634,
    "16": 1635,
    "Per": 1636,
    "ick": 1637,
    "“and": 1638,
    "car": 1639,
    "Mar": 1640,
    "rest": 1641,
    "lying": 1642,
    "issu": 1643,
    "ell": 1644,
    "took": 1645,
    "cannot": 1646,
    "contro": 1647,
    "Stoics": 1648,
    "terms": 1649,
    "table": 1650,
    "societ": 1651,
    "existentialism": 1652,
    "critical": 1653,
    "distin": 1654,
    "influence": 1655,
    "developed": 1656,
    "become": 1657,
    "“What": 1658,
    "felt": 1659,
    "Epistem": 1660,
    "soul": 1661,
    "establ": 1662,
    "independent": 1663,
    "wal": 1664,
    "ese": 1665,
    "ating": 1666,
    "King": 1667,
    "leg": 1668,
    "rect": 1669,
    "vel": 1670,
    "ird": 1671,
    "fam": 1672,
    "qual": 1673,
    "ions.": 1674,
    "abil": 1675,
    "prim": 1676,
    "them,": 1677,
    "refer": 1678,
    "subst": 1679,
    "Reason": 1680,
    "happen": 1681,
    "intellect": 1682,
    "features": 1683,
    "Ma": 1684,
    "CE": 1685,
    "sent": 1686,
    "ster": 1687,
    "within": 1688,
    "ends": 1689,
    "heard": 1690,
    "yet": 1691,
    "lection": 1692,
    "argues": 1693,
    "objective": 1694,
    "20th": 1695,
    "ground": 1696,
    "March": 1697,
    "invol": 1698,
    "virtu": 1699,
    "Log": 1700,
    "express": 1701,
    "case": 1702,
    "describ": 1703,
    "death": 1704,
    "sche": 1705,
    "mathemat": 1706,
    "Rabbit": 1707,
    "correct": 1708,
    "00": 1709,
    "ran": 1710,
    "Ger": 1711,
    "dre": 1712,
    "ones": 1713,
    "Mor": 1714,
    "edu": 1715,
    "cas": 1716,
    "oud": 1717,
    "eve": 1718,
    "jur": 1719,
    "them.": 1720,
    "wish": 1721,
    "actions": 1722,
    "When": 1723,
    "abstr": 1724,
    "it’s": 1725,
    "mative": 1726,
    "again,": 1727,
    "life.": 1728,
    "place": 1729,
    "fields": 1730,
    "cognitive": 1731,
    "central": 1732,
    "iverse": 1733,
    "associated": 1734,
    "principle": 1735,
    "believe": 1736,
    "fu": 1737,
    "?\"": 1738,
    "ze": 1739,
    "ins": 1740,
    "Wor": 1741,
    "dou": 1742,
    "le,": 1743,
    "ient": 1744,
    "ench": 1745,
    "sol": 1746,
    "list": 1747,
    "adv": 1748,
    "conf": 1749,
    "iron": 1750,
    "toge": 1751,
    "itut": 1752,
    "tical": 1753,
    "key": 1754,
    "prof": 1755,
    "comment": 1756,
    "pure": 1757,
    "num": 1758,
    "syn": 1759,
    "typ": 1760,
    "duct": 1761,
    "arguments": 1762,
    "words": 1763,
    "sources": 1764,
    "years": 1765,
    "makes": 1766,
    "necessary": 1767,
    "Joh": 1768,
    "These": 1769,
    "together": 1770,
    "h,": 1771,
    "ss": 1772,
    "ib": 1773,
    "Is": 1774,
    "cat": 1775,
    "ren": 1776,
    "ken": 1777,
    "or,": 1778,
    "ining": 1779,
    "idd": 1780,
    "soon": 1781,
    "resu": 1782,
    "pie": 1783,
    "ilar": 1784,
    "ure,": 1785,
    "percept": 1786,
    "accept": 1787,
    "past": 1788,
    "class": 1789,
    "valu": 1790,
    "178": 1791,
    "text": 1792,
    "house": 1793,
    "experience.": 1794,
    "estern": 1795,
    "turned": 1796,
    "Exist": 1797,
    "Press,": 1798,
    "scholar": 1799,
    "assum": 1800,
    "Le": 1801,
    "Pe": 1802,
    "Sy": 1803,
    "\"the": 1804,
    "ond": 1805,
    "sat": 1806,
    "eng": 1807,
    "les": 1808,
    "far": 1809,
    "bro": 1810,
    "alter": 1811,
    "cir": 1812,
    "us.": 1813,
    "emer": 1814,
    "Hare": 1815,
    "demo": 1816,
    "agre": 1817,
    "morality": 1818,
    "cover": 1819,
    "treat": 1820,
    "wise": 1821,
    "perspect": 1822,
    "aspect": 1823,
    "cult": 1824,
    "impress": 1825,
    "published": 1826,
    "history": 1827,
    "ethics.": 1828,
    "interested": 1829,
    "source": 1830,
    "construct": 1831,
    "sometimes": 1832,
    "toward": 1833,
    "scientific": 1834,
    "dialogues": 1835,
    "several": 1836,
    "enough": 1837,
    "abstract": 1838,
    "Ed": 1839,
    "won": 1840,
    "arg": 1841,
    "ists,": 1842,
    "deb": 1843,
    "llen": 1844,
    "god": 1845,
    "relat": 1846,
    "sight": 1847,
    "Socrates.": 1848,
    "inform": 1849,
    "While": 1850,
    "humans": 1851,
    "saying": 1852,
    "Stoicism": 1853,
    "traditional": 1854,
    "propert": 1855,
    "statement": 1856,
    "judgment": 1857,
    "attempt": 1858,
    "left": 1859,
    "Western": 1860,
    "democr": 1861,
    "ik": 1862,
    "Je": 1863,
    "Eth": 1864,
    "din": 1865,
    "anx": 1866,
    "tre": 1867,
    "ic,": 1868,
    "ling": 1869,
    "ili": 1870,
    "xim": 1871,
    "held": 1872,
    "spo": 1873,
    "using": 1874,
    "tra": 1875,
    "ations.": 1876,
    "ought": 1877,
    "rac": 1878,
    "aced": 1879,
    "comp": 1880,
    "Wil": 1881,
    "sil": 1882,
    "wide": 1883,
    "gard": 1884,
    "ook": 1885,
    "ible": 1886,
    "entire": 1887,
    "else": 1888,
    "Not": 1889,
    "opin": 1890,
    "ieval": 1891,
    "studies": 1892,
    "auth": 1893,
    "making": 1894,
    "fully": 1895,
    "having": 1896,
    "space": 1897,
    "consequential": 1898,
    "absur": 1899,
    "Athens": 1900,
    "became": 1901,
    "herself,": 1902,
    "topics": 1903,
    "possibility": 1904,
    "external": 1905,
    "distinguish": 1906,
    "behav": 1907,
    "remark": 1908,
    "introdu": 1909,
    "intellectual": 1910,
    "doub": 1911,
    "circ": 1912,
    "argue": 1913,
    "To": 1914,
    "Eu": 1915,
    "10": 1916,
    "25": 1917,
    "Her": 1918,
    "wat": 1919,
    "Nat": 1920,
    "hal": 1921,
    "ges": 1922,
    "Pro": 1923,
    "ume": 1924,
    "fut": 1925,
    "dut": 1926,
    "und": 1927,
    "unity": 1928,
    "comes": 1929,
    "ence,": 1930,
    "aged": 1931,
    "others": 1932,
    "izing": 1933,
    "“Wh": 1934,
    "200": 1935,
    "critic": 1936,
    "Mouse": 1937,
    "reality.": 1938,
    "everything": 1939,
    "living": 1940,
    "Amar": 1941,
    "gave": 1942,
    "influential": 1943,
    "turn": 1944,
    "descript": 1945,
    "definition": 1946,
    "decis": 1947,
    "seemed": 1948,
    "justified": 1949,
    "ceived": 1950,
    "animal": 1951,
    "transcendental": 1952,
    "justification": 1953,
    "connect": 1954,
    "Duchess": 1955,
    "influenced": 1956,
    "German": 1957,
    "wonder": 1958,
    "pa": 1959,
    "Af": 1960,
    "De": 1961,
    "Pa": 1962,
    "Im": 1963,
    "jo": 1964,
    "wis": 1965,
    "ered": 1966,
    "ices": 1967,
    "that,": 1968,
    "Hist": 1969,
    "bus": 1970,
    "hur": 1971,
    "you,": 1972,
    "erial": 1973,
    "this,": 1974,
    "ately": 1975,
    "Ind": 1976,
    "cap": 1977,
    "morally": 1978,
    "ually": 1979,
    "earli": 1980,
    "pill": 1981,
    "tried": 1982,
    "–19": 1983,
    "thinking": 1984,
    "written": 1985,
    "counter": 1986,
    "Philosoph": 1987,
    "concre": 1988,
    "(18": 1989,
    "clear": 1990,
    "closely": 1991,
    "statements": 1992,
    "beaut": 1993,
    "motiv": 1994,
    "merely": 1995,
    "account": 1996,
    "contribut": 1997,
    "inquiry": 1998,
    "contempor": 1999,
    "French": 2000,
    "oretical": 2001,
    "agreem": 2002,
    "Amara": 2003,
    "After": 2004,
    "material": 2005,
    "l,": 2006,
    "By": 2007,
    "\"I": 2008,
    "Cat": 2009,
    "jor": 2010,
    "—and": 2011,
    "iting": 2012,
    "lex": 2013,
    "ford": 2014,
    "ations,": 2015,
    "dear": 2016,
    "exper": 2017,
    "fra": 2018,
    "fri": 2019,
    "memor": 2020,
    "away": 2021,
    "preh": 2022,
    "reach": 2023,
    "link": 2024,
    "izes": 2025,
    "strong": 2026,
    "actual": 2027,
    "Many": 2028,
    "grou": 2029,
    "reasoning": 2030,
    "argued": 2031,
    "White": 2032,
    "views": 2033,
    "face": 2034,
    "belong": 2035,
    "ready": 2036,
    "arily": 2037,
    "harm": 2038,
    "appear": 2039,
    "assert": 2040,
    "Academ": 2041,
    "complete": 2042,
    "intuition": 2043,
    "themselves": 2044,
    "further": 2045,
    "understood": 2046,
    "research": 2047,
    "assumpt": 2048,
    "absurd": 2049,
    "behavior": 2050,
    "half": 2051,
    "aterpill": 2052,
    "concrete": 2053,
    "aterpillar": 2054,
    "ix": 2055,
    "tw": 2056,
    "Ge": 2057,
    "c.": 2058,
    "21": 2059,
    "vis": 2060,
    "ele": 2061,
    "vent": 2062,
    "che": 2063,
    "Com": 2064,
    "ided": 2065,
    "exe": 2066,
    "thro": 2067,
    "inde": 2068,
    "care": 2069,
    "nam": 2070,
    "\"The": 2071,
    "acts": 2072,
    "exact": 2073,
    "acy": 2074,
    "one.": 2075,
    "iful": 2076,
    "rich": 2077,
    "tech": 2078,
    "Socrates,": 2079,
    "evol": 2080,
    "infer": 2081,
    "liter": 2082,
    "can’t": 2083,
    "Then": 2084,
    "aims": 2085,
    "berg": 2086,
    "creat": 2087,
    "experiences": 2088,
    "century,": 2089,
    "expect": 2090,
    "laws": 2091,
    "importance": 2092,
    "structure": 2093,
    "conditions": 2094,
    "concern": 2095,
    "eyes": 2096,
    "effect": 2097,
    "divine": 2098,
    "Xeno": 2099,
    "movement": 2100,
    "Caterpillar": 2101,
    "execut": 2102,
    "Se": 2103,
    "Mer": 2104,
    "men": 2105,
    "bre": 2106,
    "cing": 2107,
    "ions,": 2108,
    "ers,": 2109,
    "suf": 2110,
    "pot": 2111,
    "poor": 2112,
    "lam": 2113,
    "’ll": 2114,
    "ice,": 2115,
    "ive,": 2116,
    "sess": 2117,
    "tail": 2118,
    "ilit": 2119,
    "physical": 2120,
    "Pri": 2121,
    "Aristotle,": 2122,
    "line": 2123,
    "raw": 2124,
    "emot": 2125,
    "oblig": 2126,
    "studied": 2127,
    "ologists": 2128,
    "produ": 2129,
    "respect": 2130,
    "adict": 2131,
    "although": 2132,
    "I’ll": 2133,
    "asked": 2134,
    "judge": 2135,
    "medi": 2136,
    "criticism": 2137,
    "rupt": 2138,
    "contrast,": 2139,
    "support": 2140,
    "Engl": 2141,
    "simply": 2142,
    "situ": 2143,
    "beginning": 2144,
    "interpret": 2145,
    "given": 2146,
    "978-0": 2147,
    "conclus": 2148,
    "dream": 2149,
    "constitut": 2150,
    "theoretical": 2151,
    "ys": 2152,
    "ah": 2153,
    "II": 2154,
    "38": 2155,
    "i.": 2156,
    "40": 2157,
    "15": 2158,
    "th,": 2159,
    "ony": 2160,
    "ven": 2161,
    "bor": 2162,
    "hed": 2163,
    "oman": 2164,
    "bey": 2165,
    "rad": 2166,
    "suc": 2167,
    "cial": 2168,
    "repe": 2169,
    "ood": 2170,
    "logy": 2171,
    "vol": 2172,
    "ies.": 2173,
    "ives": 2174,
    "itiv": 2175,
    "imag": 2176,
    "ending": 2177,
    "door": 2178,
    "gover": 2179,
    "likely": 2180,
    "ance.": 2181,
    "valid": 2182,
    "almost": 2183,
    "(17": 2184,
    "lack": 2185,
    "consist": 2186,
    "Ancient": 2187,
    "getting": 2188,
    "following": 2189,
    "religion": 2190,
    "Athenian": 2191,
    "methods": 2192,
    "sort": 2193,
    "concerned": 2194,
    "shaped": 2195,
    "cyclo": 2196,
    "Niet": 2197,
    "ability": 2198,
    "zsche": 2199,
    "Moral": 2200,
    "normative": 2201,
    "conduct": 2202,
    "similar": 2203,
    "Existential": 2204,
    "Hellen": 2205,
    "maxim": 2206,
    "major": 2207,
    "Alex": 2208,
    "Islam": 2209,
    "contradict": 2210,
    "Nietzsche": 2211,
    "Hellenistic": 2212,
    "g.": 2213,
    "“C": 2214,
    "“S": 2215,
    "ae": 2216,
    "11": 2217,
    "fan": 2218,
    "iss": 2219,
    "onic": 2220,
    "ias": 2221,
    "ging": 2222,
    "lea": 2223,
    "ange": 2224,
    "ably": 2225,
    "city": 2226,
    "ess.": 2227,
    "fac": 2228,
    "all,": 2229,
    "coming": 2230,
    "ively": 2231,
    "essence": 2232,
    "ilt": 2233,
    "trial": 2234,
    "Heide": 2235,
    "convers": 2236,
    "agree": 2237,
    "parts": 2238,
    "beliefs.": 2239,
    "consci": 2240,
    "again.": 2241,
    "contain": 2242,
    "generally": 2243,
    "depends": 2244,
    "emplo": 2245,
    "divid": 2246,
    "won’t": 2247,
    "surv": 2248,
    "problems": 2249,
    "rule": 2250,
    "haps": 2251,
    "sensory": 2252,
    "monstr": 2253,
    "reflect": 2254,
    "instance,": 2255,
    "determin": 2256,
    "investigates": 2257,
    "“That": 2258,
    "continued": 2259,
    "Apolog": 2260,
    "icians": 2261,
    "organ": 2262,
    "manuel": 2263,
    "universe": 2264,
    "profess": 2265,
    "number": 2266,
    "result": 2267,
    "future": 2268,
    "possess": 2269,
    "Alexand": 2270,
    "conscious": 2271,
    "ya": 2272,
    "Am": 2273,
    "Cl": 2274,
    "Em": 2275,
    "12": 2276,
    "-5": 2277,
    "ank": 2278,
    "on.": 2279,
    "alu": 2280,
    "aes": 2281,
    "ised": 2282,
    "aster": 2283,
    "uses": 2284,
    "bur": 2285,
    "All": 2286,
    "ught": 2287,
    "chall": 2288,
    "herent": 2289,
    "opt": 2290,
    "aud": 2291,
    "Pure": 2292,
    "someone": 2293,
    "formal": 2294,
    "along": 2295,
    "keep": 2296,
    "assess": 2297,
    "arian": 2298,
    "time.": 2299,
    "personal": 2300,
    "world.": 2301,
    "pedia": 2302,
    "experience,": 2303,
    "cript": 2304,
    "writing": 2305,
    "ignor": 2306,
    "status": 2307,
    "Although": 2308,
    "respond": 2309,
    "dialog": 2310,
    "added": 2311,
    "focuses": 2312,
    "however,": 2313,
    "compass": 2314,
    "takes": 2315,
    "development": 2316,
    "ness,": 2317,
    "doctrine": 2318,
    "Trans": 2319,
    "“Well": 2320,
    "establish": 2321,
    "Logic": 2322,
    "ross": 2323,
    "iddle": 2324,
    "alternat": 2325,
    "watch": 2326,
    "wisdom": 2327,
    "compreh": 2328,
    "Xenophon": 2329,
    "English": 2330,
    "Encyclo": 2331,
    "Islamic": 2332,
    "Heidegg": 2333,
    "evalu": 2334,
    "ls": 2335,
    "ff": 2336,
    "47": 2337,
    "ann": 2338,
    "Lat": 2339,
    "Sch": 2340,
    "me,": 2341,
    "pop": 2342,
    "May": 2343,
    "test": 2344,
    "said.": 2345,
    "artic": 2346,
    "hind": 2347,
    "formu": 2348,
    "Hege": 2349,
    "offer": 2350,
    "pup": 2351,
    "except": 2352,
    "aimon": 2353,
    "accord": 2354,
    "student": 2355,
    "hope": 2356,
    "world,": 2357,
    "spir": 2358,
    "well-": 2359,
    "diffic": 2360,
    "logic,": 2361,
    "practice": 2362,
    "simple": 2363,
    "subjective": 2364,
    "knew": 2365,
    "writings": 2366,
    "causal": 2367,
    "feeling": 2368,
    "“But": 2369,
    "judgments": 2370,
    "letter": 2371,
    "Fried": 2372,
    "single": 2373,
    "implic": 2374,
    "applied": 2375,
    "historical": 2376,
    "pleasure": 2377,
    "synthetic": 2378,
    "types": 2379,
    "doubt": 2380,
    "contemporary": 2381,
    "evolut": 2382,
    "divided": 2383,
    "dialogue": 2384,
    "Sp": 2385,
    "39": 2386,
    "yth": 2387,
    "er.": 2388,
    "cal": 2389,
    "tor": 2390,
    "Med": 2391,
    "ican": 2392,
    "mit": 2393,
    "rele": 2394,
    "glo": 2395,
    "iding": 2396,
    "iment": 2397,
    "deal": 2398,
    "ush": 2399,
    "was,": 2400,
    "imper": 2401,
    "equ": 2402,
    "trie": 2403,
    "rul": 2404,
    "worth": 2405,
    "lap": 2406,
    "sible": 2407,
    "deep": 2408,
    "really": 2409,
    "umst": 2410,
    "till": 2411,
    "thought.": 2412,
    "Let": 2413,
    "cried": 2414,
    "oot": 2415,
    "agmat": 2416,
    "sipp": 2417,
    "conceptual": 2418,
    "Chry": 2419,
    "epistemic": 2420,
    "facts": 2421,
    "thentic": 2422,
    "condition": 2423,
    "I’ve": 2424,
    "followed": 2425,
    "kinds": 2426,
    "schools": 2427,
    "domain": 2428,
    "provide": 2429,
    "distinguished": 2430,
    "psychology": 2431,
    "...": 2432,
    "address": 2433,
    "viol": 2434,
    "underlying": 2435,
    "distinction": 2436,
    "full": 2437,
    "Works": 2438,
    "debate": 2439,
    "spoke": 2440,
    "garden": 2441,
    "Natural": 2442,
    "History": 2443,
    "thropolog": 2444,
    "draw": 2445,
    "built": 2446,
    "Encyclopedia": 2447,
    "circumst": 2448,
    "Chrysipp": 2449,
    "circumstances": 2450,
    "io": 2451,
    "cu": 2452,
    "Co": 2453,
    "’”": 2454,
    "):": 2455,
    "A.": 2456,
    "nal": 2457,
    "ises": 2458,
    "ses": 2459,
    "Sou": 2460,
    "sole": 2461,
    "Rus": 2462,
    "liam": 2463,
    "ket": 2464,
    "peci": 2465,
    "anti": 2466,
    "comb": 2467,
    "her,": 2468,
    "gence": 2469,
    "smo": 2470,
    "ples": 2471,
    "ival": 2472,
    "agent": 2473,
    "it,”": 2474,
    "Inter": 2475,
    "ory,": 2476,
    "essential": 2477,
    "way,": 2478,
    "ign": 2479,
    "igs": 2480,
    "gra": 2481,
    "thought,": 2482,
    "feet": 2483,
    "elf": 2484,
    "arguing": 2485,
    "foot": 2486,
    "iously": 2487,
    "series": 2488,
    "father": 2489,
    "avo": 2490,
    "BC,": 2491,
    "systematic": 2492,
    "Analy": 2493,
    "topic": 2494,
    "addition": 2495,
    "value.": 2496,
    "holds": 2497,
    "Epic": 2498,
    "(199": 2499,
    "Press.": 2500,
    "require": 2501,
    "quiet": 2502,
    "faith": 2503,
    "With": 2504,
    "idealism": 2505,
    "theory,": 2506,
    "signific": 2507,
    "“I’m": 2508,
    "controvers": 2509,
    "jury": 2510,
    "properties": 2511,
    "ordin": 2512,
    "friend": 2513,
    "i.e.": 2514,
    "Immanuel": 2515,
    "“Well,": 2516,
    "behind": 2517,
    "accordance": 2518,
    "Friedrich": 2519,
    "William": 2520,
    "Po": 2521,
    "Qu": 2522,
    "\";": 2523,
    "ön": 2524,
    "athe": 2525,
    "pan": 2526,
    "hon": 2527,
    "Ber": 2528,
    "err": 2529,
    "gre": 2530,
    "mal": 2531,
    "Des": 2532,
    "bes": 2533,
    "Nor": 2534,
    "war": 2535,
    "Ear": 2536,
    "onom": 2537,
    "rely": 2538,
    "lian": 2539,
    "so,": 2540,
    "dim": 2541,
    "Tim": 2542,
    "ove": 2543,
    "told": 2544,
    "itation": 2545,
    "attr": 2546,
    "que": 2547,
    "ake": 2548,
    "Know": 2549,
    "pet": 2550,
    "rope": 2551,
    "er's": 2552,
    "knowing": 2553,
    "net": 2554,
    "wee": 2555,
    "“but": 2556,
    "clar": 2557,
    "achie": 2558,
    "Ant": 2559,
    "examine": 2560,
    "corpor": 2561,
    "that’s": 2562,
    "allow": 2563,
    "fill": 2564,
    "died": 2565,
    "Human": 2566,
    "First": 2567,
    "section": 2568,
    "Two": 2569,
    "ipp": 2570,
    "accus": 2571,
    "liber": 2572,
    "uck": 2573,
    "impossible": 2574,
    "explan": 2575,
    "curious": 2576,
    "-century": 2577,
    "disput": 2578,
    "Beau": 2579,
    "seems": 2580,
    "science.": 2581,
    "spired": 2582,
    "stead": 2583,
    "proposed": 2584,
    "leading": 2585,
    "regarded": 2586,
    "original": 2587,
    "relationship": 2588,
    "purpose": 2589,
    "disciplines": 2590,
    "ontological": 2591,
    "replied": 2592,
    "branches": 2593,
    "issues": 2594,
    "collection": 2595,
    "John": 2596,
    "“Oh,": 2597,
    "otherwise": 2598,
    "information": 2599,
    "Jean": 2600,
    "medieval": 2601,
    "Hume": 2602,
    "connected": 2603,
    "Paul": 2604,
    "agreement": 2605,
    "fraid": 2606,
    "already": 2607,
    "techn": 2608,
    "potential": 2609,
    "beyond": 2610,
    "perhaps": 2611,
    "taught": 2612,
    "relev": 2613,
    "oneself": 2614,
    "Knowledge": 2615,
    "ub": 2616,
    "“A": 2617,
    "Bo": 2618,
    "Ag": 2619,
    "ger": 2620,
    "ben": 2621,
    "sees": 2622,
    "yph": 2623,
    "Sim": 2624,
    "sud": 2625,
    "cil": 2626,
    "tran": 2627,
    "lled": 2628,
    "“The": 2629,
    "meant": 2630,
    "notion": 2631,
    "esty": 2632,
    "ires": 2633,
    "neg": 2634,
    "ive.": 2635,
    "aries": 2636,
    "plac": 2637,
    "aint": 2638,
    "edition": 2639,
    "event": 2640,
    "Aristote": 2641,
    "sound": 2642,
    "ally,": 2643,
    "stated": 2644,
    "idian": 2645,
    "wood": 2646,
    "oplat": 2647,
    "thinkers": 2648,
    "desire": 2649,
    "ulty": 2650,
    "fair": 2651,
    "life,": 2652,
    "context": 2653,
    "longer": 2654,
    "compon": 2655,
    "whereas": 2656,
    "phon,": 2657,
    "systems": 2658,
    "“How": 2659,
    "“And": 2660,
    "itude": 2661,
    "hand,": 2662,
    "property": 2663,
    "pair": 2664,
    "epistemology,": 2665,
    "scholars": 2666,
    "New": 2667,
    "heav": 2668,
    "minut": 2669,
    "power": 2670,
    "changed": 2671,
    "academ": 2672,
    "theorists": 2673,
    "trying": 2674,
    "tone,": 2675,
    "responsible": 2676,
    "“No": 2677,
    "happiness": 2678,
    "distinct": 2679,
    "level": 2680,
    "substance": 2681,
    "mathematical": 2682,
    "towards": 2683,
    "expected": 2684,
    "978-0-": 2685,
    "employ": 2686,
    "Priya": 2687,
    "encompass": 2688,
    "Transcendental": 2689,
    "Latin": 2690,
    "popular": 2691,
    "trieved": 2692,
    "authentic": 2693,
    "Kön": 2694,
    "Europe": 2695,
    "sudden": 2696,
    "Meridian": 2697,
    "Neoplat": 2698,
    "ni": 2699,
    "“—": 2700,
    "_I": 2701,
    "’d": 2702,
    "W.": 2703,
    "ax": 2704,
    "22": 2705,
    "24": 2706,
    "13": 2707,
    "ont": 2708,
    "enth": 2709,
    "cit": 2710,
    "ands": 2711,
    "inent": 2712,
    "sty": 2713,
    "phr": 2714,
    "ech": 2715,
    "suit": 2716,
    "post": 2717,
    "icity": 2718,
    "meta": 2719,
    "ence.": 2720,
    "ail": 2721,
    "man,": 2722,
    "tea": 2723,
    "fear": 2724,
    "ivity": 2725,
    "wind": 2726,
    "doing": 2727,
    "do,": 2728,
    "goes": 2729,
    "Just": 2730,
    "fig": 2731,
    "whose": 2732,
    "pred": 2733,
    "story": 2734,
    "Kantian": 2735,
    "earth": 2736,
    "19th": 2737,
    "content": 2738,
    "reason,": 2739,
    "standard": 2740,
    "iety": 2741,
    "175": 2742,
    "metaphysics,": 2743,
    "down,": 2744,
    "preced": 2745,
    "cise": 2746,
    "court": 2747,
    "curr": 2748,
    "included": 2749,
    "greatest": 2750,
    "sense,": 2751,
    "deny": 2752,
    "characterized": 2753,
    "Queen,": 2754,
    "identified": 2755,
    "talking": 2756,
    "Cambridge:": 2757,
    "animals": 2758,
    "nearly": 2759,
    "ontolog": 2760,
    "skepticism": 2761,
    "“It’s": 2762,
    "appeared": 2763,
    "virtues": 2764,
    "described": 2765,
    "educ": 2766,
    "running": 2767,
    "taken": 2768,
    "opinion": 2769,
    "introduced": 2770,
    "earlier": 2771,
    "indeed": 2772,
    "concerns": 2773,
    "success": 2774,
    "e.g.": 2775,
    "demonstr": 2776,
    "Hegel": 2777,
    "hetor": 2778,
    "emergence": 2779,
    "igsberg": 2780,
    "i.e.,": 2781,
    "relevant": 2782,
    "Königsberg": 2783,
    "mb": 2784,
    "o,": 2785,
    "CH": 2786,
    "s;": 2787,
    "“D": 2788,
    "“Y": 2789,
    "If": 2790,
    "zz": 2791,
    "Or": 2792,
    "Ly": 2793,
    "J.": 2794,
    "thet": 2795,
    "ons": 2796,
    "Ren": 2797,
    "(or": 2798,
    "init": 2799,
    "eas": 2800,
    "tas": 2801,
    "ping": 2802,
    "ly:": 2803,
    "mad": 2804,
    "ius": 2805,
    "thus": 2806,
    "tru": 2807,
    "oper": 2808,
    "entity": 2809,
    "antly": 2810,
    "not,": 2811,
    "llog": 2812,
    "tone": 2813,
    "out,": 2814,
    "ief": 2815,
    "prove": 2816,
    "ment.": 2817,
    "ment,": 2818,
    "amoun": 2819,
    "wel": 2820,
    "sian": 2821,
    "ate,": 2822,
    "Alice;": 2823,
    "shar": 2824,
    "share": 2825,
    "formed": 2826,
    "formul": 2827,
    "unlike": 2828,
    "ultim": 2829,
    "existing": 2830,
    "hast": 2831,
    "ine,": 2832,
    "ization": 2833,
    "Plato,": 2834,
    "there’s": 2835,
    "um,": 2836,
    "Bill": 2837,
    "199": 2838,
    "bling": 2839,
    "bles": 2840,
    "white": 2841,
    "Form": 2842,
    "176": 2843,
    "redu": 2844,
    "nature,": 2845,
    "dread": 2846,
    "modal": 2847,
    "antiqu": 2848,
    "true.": 2849,
    "courage": 2850,
    "asks": 2851,
    "didn’t": 2852,
    "created": 2853,
    "turning": 2854,
    "doesn’t": 2855,
    "itself,": 2856,
    "philosophers,": 2857,
    "plies": 2858,
    "metaphysics.": 2859,
    "defined": 2860,
    "separ": 2861,
    "voice,": 2862,
    "neither": 2863,
    "outside": 2864,
    "approaches": 2865,
    "Prin": 2866,
    "teaching": 2867,
    "Dav": 2868,
    "apply": 2869,
    "affect": 2870,
    "consequences.": 2871,
    "asserts": 2872,
    "intellig": 2873,
    "miss": 2874,
    "responsibility": 2875,
    "thesis": 2876,
    "analysis": 2877,
    "build": 2878,
    "acquire": 2879,
    "propositional": 2880,
    "define": 2881,
    "Epistemology": 2882,
    "established": 2883,
    "examining": 2884,
    "impressions": 2885,
    "Ed.": 2886,
    "Ethics": 2887,
    "author": 2888,
    "primarily": 2889,
    "born": 2890,
    "govern": 2891,
    "ness.": 2892,
    "“That’s": 2893,
    "challen": 2894,
    "ilitarian": 2895,
    "correspond": 2896,
    "alternative": 2897,
    "comprehens": 2898,
    "avoid": 2899,
    "ordinary": 2900,
    "attribut": 2901,
    "cility": 2902,
    "Aristotelian": 2903,
    "Retrieved": 2904,
    "Neoplaton": 2905,
    "sw": 2906,
    "hy": 2907,
    "“N": 2908,
    "ox": 2909,
    "“H": 2910,
    "“_": 2911,
    "Li": 2912,
    "'t": 2913,
    "yr": 2914,
    "42": 2915,
    "74": 2916,
    "Ox": 2917,
    "in,": 2918,
    "—the": 2919,
    "rat": 2920,
    "dat": 2921,
    "ison": 2922,
    "ener": 2923,
    "Fre": 2924,
    "ali": 2925,
    "bal": 2926,
    "zed": 2927,
    "Mic": 2928,
    "tom": 2929,
    "mou": 2930,
    "bly": 2931,
    "ched": 2932,
    "ades": 2933,
    "dro": 2934,
    "s,”": 2935,
    "ination": 2936,
    "sage": 2937,
    "ather": 2938,
    "ants": 2939,
    "note": 2940,
    "all.": 2941,
    "know.": 2942,
    "youn": 2943,
    "Pol": 2944,
    "fil": 2945,
    "ured": 2946,
    "whate": 2947,
    "Arab": 2948,
    "exists": 2949,
    "Its": 2950,
    "cup": 2951,
    "pre-": 2952,
    "interlo": 2953,
    "justice": 2954,
    "beliefs,": 2955,
    "him,": 2956,
    "Got": 2957,
    "bring": 2958,
    "oppos": 2959,
    "first,": 2960,
    "ology.": 2961,
    "aws": 2962,
    "conception": 2963,
    "King,": 2964,
    "final": 2965,
    "bert": 2966,
    "access": 2967,
    "hood": 2968,
    "commun": 2969,
    "physics,": 2970,
    "fail": 2971,
    "black": 2972,
    "foundational": 2973,
    "spent": 2974,
    "asking": 2975,
    "Virt": 2976,
    "useful": 2977,
    "subsequ": 2978,
    "claimed": 2979,
    "Meta": 2980,
    "day,": 2981,
    "therefore": 2982,
    "ogra": 2983,
    "curs": 2984,
    "surpr": 2985,
    "off,": 2986,
    "includes": 2987,
    "theories.": 2988,
    "–18": 2989,
    "epistemological": 2990,
    "cognition": 2991,
    "analytic": 2992,
    "arrive": 2993,
    "forgot": 2994,
    "required": 2995,
    "ency": 2996,
    "sitting": 2997,
    "wanted": 2998,
    "complex": 2999,
    "gives": 3000,
    "suppose": 3001,
    "sky": 3002,
    "themselv": 3003,
    "Gryphon.": 3004,
    "you’re": 3005,
    "norms": 3006,
    "issue": 3007,
    "bird": 3008,
    "famous": 3009,
    "CE)": 3010,
    "mathematics": 3011,
    "trins": 3012,
    "absol": 3013,
    "classical": 3014,
    "texts": 3015,
    "aspects": 3016,
    "gods": 3017,
    "insight": 3018,
    "entirely": 3019,
    "2025": 3020,
    "(200": 3021,
    "Indian": 3022,
    "encounter": 3023,
    "exactly": 3024,
    "Epistemologists": 3025,
    "walked": 3026,
    "Roman": 3027,
    "Existentialism": 3028,
    "“Come": 3029,
    "Class": 3030,
    "Xenophon's": 3031,
    "pupil": 3032,
    "spirit": 3033,
    "experiment": 3034,
    "rules": 3035,
    "Foot": 3036,
    "Chrysippus": 3037,
    "especi": 3038,
    "inspired": 3039,
    "_I_": 3040,
    "citiz": 3041,
    "puzz": 3042,
    "David": 3043,
    "utilitarian": 3044,
    "Oxford": 3045,
    "whatever": 3046,
    "interlocut": 3047,
    "2025.": 3048,
    "especially": 3049,
    "Sh": 3050,
    ":—": 3051,
    "37": 3052,
    "(\"": 3053,
    "Gu": 3054,
    "70": 3055,
    "14": 3056,
    "46": 3057,
    "bed": 3058,
    "Cit": 3059,
    "oras": 3060,
    "zing": 3061,
    "lob": 3062,
    "loc": 3063,
    "sec": 3064,
    "bear": 3065,
    "sist": 3066,
    "ist,": 3067,
    "imp": 3068,
    "fort": 3069,
    "ter,": 3070,
    "gir": 3071,
    "sold": 3072,
    "ige": 3073,
    "bab": 3074,
    "cian": 3075,
    "ers.": 3076,
    "eds.": 3077,
    "Pha": 3078,
    "acc": 3079,
    "lay": 3080,
    "latter": 3081,
    "things,": 3082,
    "udd": 3083,
    "_,”": 3084,
    "excl": 3085,
    "shif": 3086,
    "goal": 3087,
    "very_": 3088,
    "Platon": 3089,
    "race": 3090,
    "“If": 3091,
    "intent": 3092,
    "ubl": 3093,
    "realm": 3094,
    "finite": 3095,
    "choice": 3096,
    "irty": 3097,
    "179": 3098,
    "commit": 3099,
    "tained": 3100,
    "founded": 3101,
    "anced": 3102,
    "rationalism": 3103,
    "ia,": 3104,
    "mind,": 3105,
    "Relig": 3106,
    "depict": 3107,
    "finished": 3108,
    "wasn’t": 3109,
    "explor": 3110,
    "regular": 3111,
    "Athens,": 3112,
    "identity": 3113,
    "moved": 3114,
    "“There": 3115,
    "response": 3116,
    "itself.": 3117,
    "\"What": 3118,
    "book,": 3119,
    "Concept": 3120,
    "definitions": 3121,
    "water": 3122,
    "During": 3123,
    "teachings": 3124,
    "directly": 3125,
    "interpreted": 3126,
    "accounts": 3127,
    "intuitions": 3128,
    "Further": 3129,
    "explores": 3130,
    "society": 3131,
    "primary": 3132,
    "Maj": 3133,
    "dedu": 3134,
    "Confu": 3135,
    "size": 3136,
    "ficient": 3137,
    "piece": 3138,
    "values": 3139,
    "scholarship": 3140,
    "broad": 3141,
    "business": 3142,
    "belongs": 3143,
    "(c.": 3144,
    "elements": 3145,
    "named": 3146,
    "immedi": 3147,
    "interrupt": 3148,
    "Apology,": 3149,
    "metaphysicians": 3150,
    "master": 3151,
    "adopt": 3152,
    "audi": 3153,
    "across": 3154,
    "difficult": 3155,
    "evolution": 3156,
    "overlap": 3157,
    "cosmo": 3158,
    "Analytic": 3159,
    "Internet": 3160,
    "Instead": 3161,
    "benef": 3162,
    "trans.": 3163,
    "Gryphon,": 3164,
    "prominent": 3165,
    "speech": 3166,
    "facticity": 3167,
    "figure": 3168,
    "hetoric": 3169,
    "Polit": 3170,
    "Gott": 3171,
    "intrins": 3172,
    "absolute": 3173,
    "We": 3174,
    "Au": 3175,
    "AP": 3176,
    "ER": 3177,
    "Ad": 3178,
    "\"a": 3179,
    "i,": 3180,
    "50": 3181,
    "58": 3182,
    "ein": 3183,
    "Din": 3184,
    "(the": 3185,
    "era": 3186,
    "ert": 3187,
    "pen": 3188,
    "Cor": 3189,
    "wit": 3190,
    "fit": 3191,
    "gar": 3192,
    "arl": 3193,
    "ley": 3194,
    "phan": 3195,
    "ceed": 3196,
    "lies": 3197,
    "stim": 3198,
    "cro": 3199,
    "met": 3200,
    "ir,": 3201,
    "fir": 3202,
    "dem": 3203,
    "mut": 3204,
    "poe": 3205,
    "tus": 3206,
    "sell": 3207,
    "s.”": 3208,
    "sake": 3209,
    "antic": 3210,
    "Mod": 3211,
    "Dod": 3212,
    "notic": 3213,
    "gone": 3214,
    "stay": 3215,
    "her.": 3216,
    "nee": 3217,
    "ctive": 3218,
    "eness": 3219,
    "hil": 3220,
    "Jud": 3221,
    "ained": 3222,
    "decl": 3223,
    "shr": 3224,
    "Arch": 3225,
    "jour": 3226,
    "Found": 3227,
    "Long": 3228,
    "astic": 3229,
    "Rep": 3230,
    "cook": 3231,
    "covers": 3232,
    "pread": 3233,
    "prev": 3234,
    "box": 3235,
    "umb": 3236,
    "flow": 3237,
    "ction.": 3238,
    "pped": 3239,
    "spect": 3240,
    "being.": 3241,
    "concepts,": 3242,
    "realists": 3243,
    "ines.": 3244,
    "mostly": 3245,
    "objects,": 3246,
    "serv": 3247,
    "commonly": 3248,
    "fav": 3249,
    "extent": 3250,
    "ification": 3251,
    "Chines": 3252,
    "irrational": 3253,
    "aking": 3254,
    "mind-": 3255,
    "reading": 3256,
    "presents": 3257,
    "throw": 3258,
    "crow": 3259,
    "mainly": 3260,
    "More": 3261,
    "explic": 3262,
    "follows": 3263,
    "accur": 3264,
    "incre": 3265,
    "King.": 3266,
    "reasoning.": 3267,
    "identical": 3268,
    "meaningless": 3269,
    "particulars": 3270,
    "augh": 3271,
    "describe": 3272,
    "Camus": 3273,
    "books": 3274,
    "another.": 3275,
    "integr": 3276,
    "choos": 3277,
    "change,": 3278,
    "lighten": 3279,
    "slight": 3280,
    "Philosophy.": 3281,
    "promise": 3282,
    "limits": 3283,
    "rejected": 3284,
    "Hatter.": 3285,
    "motion": 3286,
    "ifying": 3287,
    "applic": 3288,
    "divis": 3289,
    "suggested": 3290,
    "suggests": 3291,
    "conclud": 3292,
    "asleep": 3293,
    "tempor": 3294,
    "“I’ve": 3295,
    "explored": 3296,
    "opened": 3297,
    "novel": 3298,
    "reflection": 3299,
    "involved": 3300,
    "death.": 3301,
    "death,": 3302,
    "loud": 3303,
    "children": 3304,
    "perception": 3305,
    "accepted": 3306,
    "covered": 3307,
    "hardly": 3308,
    "Project": 3309,
    "criticized": 3310,
    "hurried": 3311,
    "actually": 3312,
    "beautiful": 3313,
    "“Then": 3314,
    "interpretation": 3315,
    "constitutes": 3316,
    "repeated": 3317,
    "itivism": 3318,
    "Middle": 3319,
    "implications": 3320,
    "Pyth": 3321,
    "pragmat": 3322,
    "anthropolog": 3323,
    "Soup": 3324,
    "anxiously": 3325,
    "controversial": 3326,
    "Early": 3327,
    "dimens": 3328,
    "achieve": 3329,
    "Beauvo": 3330,
    "component": 3331,
    "style": 3332,
    "(e.g.": 3333,
    "mouth": 3334,
    "Arabic": 3335,
    "Virtue": 3336,
    "forgotten": 3337,
    "Budd": 3338,
    "_very_": 3339,
    "Confucian": 3340,
    "Republ": 3341,
    "Chinese": 3342,
    "py": 3343,
    "zi": 3344,
    "–3": 3345,
    "',": 3346,
    "04": 3347,
    "E.": 3348,
    "2.": 3349,
    "ret": 3350,
    "rev": 3351,
    "sor": 3352,
    "tit": 3353,
    "ring": 3354,
    "aris": 3355,
    "ark": 3356,
    "lost": 3357,
    "whis": 3358,
    "conv": 3359,
    "conom": 3360,
    "ens,": 3361,
    "mus": 3362,
    "tem": 3363,
    "are,": 3364,
    "areas": 3365,
    "area": 3366,
    "now,": 3367,
    "ow,": 3368,
    "hap": 3369,
    "acle": 3370,
    "prob": 3371,
    "ceive": 3372,
    "mann": 3373,
    "plan": 3374,
    "fee": 3375,
    "iving": 3376,
    "eag": 3377,
    "frag": 3378,
    "ago": 3379,
    "pain": 3380,
    "sigh": 3381,
    "shout": 3382,
    "cape": 3383,
    "formation": 3384,
    "evil": 3385,
    "project": 3386,
    "timid": 3387,
    "Rob": 3388,
    "fish": 3389,
    "use,": 3390,
    "way.": 3391,
    "pig": 3392,
    "cope": 3393,
    "dire": 3394,
    "ionally": 3395,
    "iers": 3396,
    "quet": 3397,
    "it.”": 3398,
    "Thom": 3399,
    "root": 3400,
    "embr": 3401,
    "olig": 3402,
    "it?”": 3403,
    "genu": 3404,
    "lock": 3405,
    "two,": 3406,
    "report": 3407,
    "foundation": 3408,
    "see,": 3409,
    "rise": 3410,
    "voc": 3411,
    "Influ": 3412,
    "students": 3413,
    "arrow": 3414,
    "cred": 3415,
    "pict": 3416,
    "peace": 3417,
    "practic": 3418,
    "alog": 3419,
    "wouldn’t": 3420,
    "BC.": 3421,
    "considering": 3422,
    "yourself": 3423,
    "translated": 3424,
    "lived": 3425,
    "Because": 3426,
    "universals": 3427,
    "particularly": 3428,
    "choose": 3429,
    "existence,": 3430,
    "before,": 3431,
    "medical": 3432,
    "Schol": 3433,
    "certainly": 3434,
    "From": 3435,
    "Greece": 3436,
    "transcend": 3437,
    "causes": 3438,
    "period.": 3439,
    "Sartre's": 3440,
    "positive": 3441,
    "directed": 3442,
    "Christianity": 3443,
    "opposed": 3444,
    "External": 3445,
    "actions.": 3446,
    "leads": 3447,
    "determine": 3448,
    "Kierkegaard,": 3449,
    "haven": 3450,
    "processes": 3451,
    "inquiry.": 3452,
    "dialogues,": 3453,
    "categorical": 3454,
    "connection": 3455,
    "remained": 3456,
    "“Do": 3457,
    "pati": 3458,
    "relies": 3459,
    "sciences,": 3460,
    "observation": 3461,
    "explore": 3462,
    "dram": 3463,
    "Forms": 3464,
    "Marce": 3465,
    "control": 3466,
    "family": 3467,
    "involves": 3468,
    "expressed": 3469,
    "case,": 3470,
    "cases": 3471,
    "cats": 3472,
    "house,": 3473,
    "returned": 3474,
    "Peter": 3475,
    "emerged": 3476,
    "perspective": 3477,
    "Syrac": 3478,
    "company": 3479,
    "widely": 3480,
    "duties": 3481,
    "received": 3482,
    "centered": 3483,
    "contributions": 3484,
    "emphasizes": 3485,
    "group": 3486,
    "Academy": 3487,
    "revis": 3488,
    "literat": 3489,
    "Caterpillar.": 3490,
    "hedge": 3491,
    "Wood": 3492,
    "aiss": 3493,
    "Alexander": 3494,
    "coherent": 3495,
    "Johann": 3496,
    "testim": 3497,
    "formulated": 3498,
    "mitted": 3499,
    "imperative": 3500,
    "examples": 3501,
    "queer": 3502,
    "technical": 3503,
    "larger": 3504,
    "requires": 3505,
    "academic": 3506,
    "European": 3507,
    "precise": 3508,
    "taste": 3509,
    "syllog": 3510,
    "hastily": 3511,
    "comprehensive": 3512,
    "facility": 3513,
    "possibly": 3514,
    "ography": 3515,
    "Phaed": 3516,
    "Majesty": 3517,
    "sufficient": 3518,
    "Instead,": 3519,
    "intrinsic": 3520,
    "CHAP": 3521,
    "TER": 3522,
    "temper": 3523,
    "oligarch": 3524,
    "Renaiss": 3525,
    "CHAPTER": 3526,
    "mn": 3527,
    "\"A": 3528,
    "_,": 3529,
    "o-": 3530,
    "_”": 3531,
    "36": 3532,
    "1-": 3533,
    "28": 3534,
    "05": 3535,
    "6th": 3536,
    "ino": 3537,
    "son": 3538,
    "don": 3539,
    "yer": 3540,
    "mer": 3541,
    "al,": 3542,
    "ened": 3543,
    "ric": 3544,
    "tos": 3545,
    "ash": 3546,
    "arn": 3547,
    "War": 3548,
    "Dion": 3549,
    "lean": 3550,
    "ent,": 3551,
    "star": 3552,
    "se,": 3553,
    "bel": 3554,
    "ingly": 3555,
    "—that": 3556,
    "lie": 3557,
    "lif": 3558,
    "so.": 3559,
    "station": 3560,
    "sun": 3561,
    "une": 3562,
    "Mus": 3563,
    "emin": 3564,
    "fur": 3565,
    "hab": 3566,
    "extr": 3567,
    "crim": 3568,
    "ames": 3569,
    "ante": 3570,
    "bow": 3571,
    "know,": 3572,
    "ay,": 3573,
    "tray": 3574,
    "compe": 3575,
    "die": 3576,
    "manif": 3577,
    "cul": 3578,
    "prote": 3579,
    "fel": 3580,
    "due": 3581,
    "tend": 3582,
    "ure.": 3583,
    "indic": 3584,
    "Here": 3585,
    "propos": 3586,
    "others.": 3587,
    "gust": 3588,
    "ectic": 3589,
    "apy": 3590,
    "chap": 3591,
    "themes": 3592,
    "exist.": 3593,
    "rig": 3594,
    "up,": 3595,
    "fire": 3596,
    "then,": 3597,
    "tree": 3598,
    "thereby": 3599,
    "brou": 3600,
    "reason.": 3601,
    "taint": 3602,
    "person's": 3603,
    "subli": 3604,
    "able,": 3605,
    "hop": 3606,
    "beings": 3607,
    "difference": 3608,
    "ferences": 3609,
    "finish": 3610,
    "objects.": 3611,
    "type": 3612,
    "Chin": 3613,
    "basis": 3614,
    "command": 3615,
    "Stoics,": 3616,
    "bright": 3617,
    "Euth": 3618,
    "gras": 3619,
    "rationality": 3620,
    "search": 3621,
    "taking": 3622,
    "chang": 3623,
    "understands": 3624,
    "morality.": 3625,
    "bread": 3626,
    "myth": 3627,
    "myself": 3628,
    "game": 3629,
    "twent": 3630,
    "logic.": 3631,
    "strict": 3632,
    "task": 3633,
    "happens": 3634,
    "systemat": 3635,
    "“They": 3636,
    "egg": 3637,
    "relations": 3638,
    "transl": 3639,
    "words,": 3640,
    "Being": 3641,
    "Parm": 3642,
    "critique": 3643,
    "factors": 3644,
    "focused": 3645,
    "repli": 3646,
    "Queen.": 3647,
    "appar": 3648,
    "matter,": 3649,
    "holding": 3650,
    "epistemology.": 3651,
    "principles.": 3652,
    "Onto": 3653,
    "decide": 3654,
    "science,": 3655,
    "learning": 3656,
    "voice.": 3657,
    "logos": 3658,
    "lingu": 3659,
    "eye": 3660,
    "glad": 3661,
    "freedom.": 3662,
    "limited": 3663,
    "Others": 3664,
    "collect": 3665,
    "shape": 3666,
    "hands": 3667,
    "psychology,": 3668,
    "“Of": 3669,
    "room,": 3670,
    "discussed": 3671,
    "skeptic": 3672,
    "remains": 3673,
    "wrong.": 3674,
    "manner": 3675,
    "resem": 3676,
    "carried": 3677,
    "refers": 3678,
    "Reason,": 3679,
    "sentence": 3680,
    "sterior": 3681,
    "patient": 3682,
    "Hare.": 3683,
    "started": 3684,
    "cultural": 3685,
    "relativ": 3686,
    "Notes": 3687,
    "“Why": 3688,
    "description": 3689,
    "decision": 3690,
    "hurry": 3691,
    "capac": 3692,
    "waiting": 3693,
    "memory": 3694,
    "links": 3695,
    "ixed": 3696,
    "democracy": 3697,
    "suffer": 3698,
    "emotional": 3699,
    "criticisms": 3700,
    "Phys": 3701,
    "harmony": 3702,
    "Good": 3703,
    "strange": 3704,
    "contains": 3705,
    "Emp": 3706,
    "udaimon": 3707,
    "Medieval": 3708,
    "violent": 3709,
    "internal": 3710,
    "weeks": 3711,
    "filled": 3712,
    "negative": 3713,
    "education": 3714,
    "aesthet": 3715,
    "amount": 3716,
    "building": 3717,
    "Albert": 3718,
    "subsequent": 3719,
    "Classical": 3720,
    "Pige": 3721,
    "baby": 3722,
    "Thirty": 3723,
    "snee": 3724,
    "nihil": 3725,
    "mind-independent": 3726,
    "increas": 3727,
    "slightly": 3728,
    "econom": 3729,
    "eager": 3730,
    "Thomas": 3731,
    "genuine": 3732,
    "brought": 3733,
    "Parmen": 3734,
    "dy": 3735,
    "Fe": 3736,
    "“T": 3737,
    "ao": 3738,
    "C.": 3739,
    "35": 3740,
    "23": 3741,
    "\")": 3742,
    "{\\": 3743,
    "85": 3744,
    "1.": 3745,
    "OC": 3746,
    "LC": 3747,
    "4.": 3748,
    "Vl": 3749,
    "inc": 3750,
    "Man": 3751,
    "ton": 3752,
    "ker": 3753,
    "bat": 3754,
    "is.": 3755,
    "env": 3756,
    "Aes": 3757,
    "ded": 3758,
    "Ved": 3759,
    "ica": 3760,
    "lic": 3761,
    "vic": 3762,
    "Nic": 3763,
    "ital": 3764,
    "it;": 3765,
    "to,": 3766,
    "ased": 3767,
    "blo": 3768,
    "flo": 3769,
    "sea": 3770,
    "sex": 3771,
    "be,": 3772,
    "chen": 3773,
    "mist": 3774,
    "’ve": 3775,
    "roy": 3776,
    "meas": 3777,
    "mpo": 3778,
    "orus": 3779,
    "usion": 3780,
    "aci": 3781,
    "pper": 3782,
    "amed": 3783,
    "cam": 3784,
    "aming": 3785,
    "Sam": 3786,
    "hism": 3787,
    "quant": 3788,
    "notes": 3789,
    "acting": 3790,
    "knows": 3791,
    "tag": 3792,
    "alone": 3793,
    "(she": 3794,
    "_you": 3795,
    "active": 3796,
    "pool": 3797,
    "Dial": 3798,
    "Afr": 3799,
    "plant": 3800,
    "tele": 3801,
    "ote": 3802,
    "Al-": 3803,
    "foun": 3804,
    "indu": 3805,
    "sius": 3806,
    "that,”": 3807,
    "butter": 3808,
    "rate": 3809,
    "ivate": 3810,
    "dog": 3811,
    "Int": 3812,
    "shut": 3813,
    "gold": 3814,
    "ego": 3815,
    "igu": 3816,
    "former": 3817,
    "apart": 3818,
    "Kant,": 3819,
    "trust": 3820,
    "bound": 3821,
    "Every": 3822,
    "ources": 3823,
    "on!”": 3824,
    "mach": 3825,
    "dance": 3826,
    "party": 3827,
    "Who": 3828,
    "Alice’s": 3829,
    "hum": 3830,
    "jum": 3831,
    "recent": 3832,
    "work,": 3833,
    "Brit": 3834,
    "vary": 3835,
    "reasons": 3836,
    "him.": 3837,
    "person.": 3838,
    "App": 3839,
    "theology": 3840,
    "aware": 3841,
    "awar": 3842,
    "pite": 3843,
    "ning,": 3844,
    "finally": 3845,
    "here,": 3846,
    "could,": 3847,
    "hog": 3848,
    "fright": 3849,
    "opport": 3850,
    "dry": 3851,
    "consists": 3852,
    "rights": 3853,
    "manage": 3854,
    "lines": 3855,
    "ciples": 3856,
    "offic": 3857,
    "?\",": 3858,
    "events": 3859,
    "will.": 3860,
    "Seven": 3861,
    "evening,": 3862,
    "claiming": 3863,
    "questioning": 3864,
    "present,": 3865,
    "reality,": 3866,
    "calls": 3867,
    "asked.": 3868,
    "religion,": 3869,
    "bit,": 3870,
    "sense.": 3871,
    "unique": 3872,
    "attack": 3873,
    "itative": 3874,
    "display": 3875,
    "indirect": 3876,
    "passed": 3877,
    "passions": 3878,
    "years,": 3879,
    "total": 3880,
    "helped": 3881,
    "air,": 3882,
    "narr": 3883,
    "Sartre,": 3884,
    "side,": 3885,
    "women": 3886,
    "Pract": 3887,
    "domin": 3888,
    "teacher": 3889,
    "Ground": 3890,
    "sought": 3891,
    "freedom,": 3892,
    "Stan": 3893,
    "higher": 3894,
    "highly": 3895,
    "highest": 3896,
    "Hatter,": 3897,
    "Beaut": 3898,
    "wait": 3899,
    "waited": 3900,
    "grown": 3901,
    "discourse": 3902,
    "pointed": 3903,
    "falli": 3904,
    "discusses": 3905,
    "justification.": 3906,
    "Zeno": 3907,
    "responsibil": 3908,
    "emphasized": 3909,
    "representation": 3910,
    "BCE,": 3911,
    "observations": 3912,
    "doctrines": 3913,
    "they’re": 3914,
    "defended": 3915,
    "shared": 3916,
    "carry": 3917,
    "legal": 3918,
    "quality": 3919,
    "substant": 3920,
    "virtuous": 3921,
    "describes": 3922,
    "range": 3923,
    "occas": 3924,
    "World": 3925,
    "ibn": 3926,
    "discover": 3927,
    "constructed": 3928,
    "Maced": 3929,
    "Look": 3930,
    "shook": 3931,
    "opinions": 3932,
    "consequentialism": 3933,
    "consequentialism,": 3934,
    "duty": 3935,
    "mund": 3936,
    "community": 3937,
    "traged": 3938,
    "join": 3939,
    "Philosophical": 3940,
    "disagreem": 3941,
    "dear!": 3942,
    "groups": 3943,
    "assumptions": 3944,
    "twink": 3945,
    "Georg": 3946,
    "decided": 3947,
    "execution": 3948,
    "perspective,": 3949,
    "corrupt": 3950,
    "conclusion": 3951,
    "conclusions": 3952,
    "Brad": 3953,
    "consistent": 3954,
    "contradictory": 3955,
    "Platonic": 3956,
    "ias,": 3957,
    "leave": 3958,
    "becoming": 3959,
    "conversation": 3960,
    "Amer": 3961,
    "aesthetic": 3962,
    "bottle": 3963,
    "Heidegger": 3964,
    "addresses": 3965,
    "cket": 3966,
    "Epicure": 3967,
    "significant": 3968,
    "autonom": 3969,
    "petual": 3970,
    "Jean-": 3971,
    "Sub": 3972,
    "yphro": 3973,
    "commentaries": 3974,
    "places": 3975,
    "“No,": 3976,
    "encompasses": 3977,
    "front": 3978,
    "pursuit": 3979,
    "precedes": 3980,
    "(i.e.,": 3981,
    "sharp": 3982,
    "ibles": 3983,
    "antiquity": 3984,
    "implies": 3985,
    "Like": 3986,
    "Gener": 3987,
    "puzzled": 3988,
    "infinite": 3989,
    "Religion": 3990,
    "rhetoric": 3991,
    "Karl": 3992,
    "Aristophan": 3993,
    "affir": 3994,
    "Russell": 3995,
    "Dodo": 3996,
    "previous": 3997,
    "explicit": 3998,
    "choosing": 3999,
    "Enlighten": 4000,
    "Pythag": 4001,
    "escape": 4002,
    "croquet": 4003,
    "portray": 4004,
    "fellow": 4005,
    "OCLC": 4006,
    "Sympo": 4007,
    "opportunity": 4008,
    "Principles": 4009,
    "Beautiful": 4010,
    "disagreements": 4011,
    "Euthyphro": 4012,
    "Symposi": 4013
  }
}